// Auto-generated by train_dense_esp32.py — do not edit manually.
// Dense MLP replacing LSTM for ESP32 TFLite Micro compatibility.
#ifndef MODEL_DATA_H
#define MODEL_DATA_H

// 8-byte alignment required by TFLite Micro flatbuffer parser
alignas(8) const unsigned char model_data[] = {
  0x1c, 0x00, 0x00, 0x00, 0x54, 0x46, 0x4c, 0x33, 0x14, 0x00, 0x20, 0x00, 
  0x1c, 0x00, 0x18, 0x00, 0x14, 0x00, 0x10, 0x00, 0x0c, 0x00, 0x00, 0x00, 
  0x08, 0x00, 0x04, 0x00, 0x14, 0x00, 0x00, 0x00, 0x1c, 0x00, 0x00, 0x00, 
  0x98, 0x00, 0x00, 0x00, 0xf0, 0x00, 0x00, 0x00, 0x14, 0x07, 0x00, 0x00, 
  0x24, 0x07, 0x00, 0x00, 0x60, 0x0c, 0x00, 0x00, 0x03, 0x00, 0x00, 0x00, 
  0x01, 0x00, 0x00, 0x00, 0x10, 0x00, 0x00, 0x00, 0x00, 0x00, 0x0a, 0x00, 
  0x10, 0x00, 0x0c, 0x00, 0x08, 0x00, 0x04, 0x00, 0x0a, 0x00, 0x00, 0x00, 
  0x0c, 0x00, 0x00, 0x00, 0x1c, 0x00, 0x00, 0x00, 0x3c, 0x00, 0x00, 0x00, 
  0x0f, 0x00, 0x00, 0x00, 0x73, 0x65, 0x72, 0x76, 0x69, 0x6e, 0x67, 0x5f, 
  0x64, 0x65, 0x66, 0x61, 0x75, 0x6c, 0x74, 0x00, 0x01, 0x00, 0x00, 0x00, 
  0x04, 0x00, 0x00, 0x00, 0x90, 0xff, 0xff, 0xff, 0x09, 0x00, 0x00, 0x00, 
  0x04, 0x00, 0x00, 0x00, 0x08, 0x00, 0x00, 0x00, 0x6f, 0x75, 0x74, 0x70, 
  0x75, 0x74, 0x5f, 0x30, 0x00, 0x00, 0x00, 0x00, 0x01, 0x00, 0x00, 0x00, 
  0x04, 0x00, 0x00, 0x00, 0x9a, 0xf9, 0xff, 0xff, 0x04, 0x00, 0x00, 0x00, 
  0x0c, 0x00, 0x00, 0x00, 0x6b, 0x65, 0x72, 0x61, 0x73, 0x5f, 0x74, 0x65, 
  0x6e, 0x73, 0x6f, 0x72, 0x00, 0x00, 0x00, 0x00, 0x02, 0x00, 0x00, 0x00, 
  0x34, 0x00, 0x00, 0x00, 0x04, 0x00, 0x00, 0x00, 0xdc, 0xff, 0xff, 0xff, 
  0x0c, 0x00, 0x00, 0x00, 0x04, 0x00, 0x00, 0x00, 0x13, 0x00, 0x00, 0x00, 
  0x43, 0x4f, 0x4e, 0x56, 0x45, 0x52, 0x53, 0x49, 0x4f, 0x4e, 0x5f, 0x4d, 
  0x45, 0x54, 0x41, 0x44, 0x41, 0x54, 0x41, 0x00, 0x08, 0x00, 0x0c, 0x00, 
  0x08, 0x00, 0x04, 0x00, 0x08, 0x00, 0x00, 0x00, 0x0b, 0x00, 0x00, 0x00, 
  0x04, 0x00, 0x00, 0x00, 0x13, 0x00, 0x00, 0x00, 0x6d, 0x69, 0x6e, 0x5f, 
  0x72, 0x75, 0x6e, 0x74, 0x69, 0x6d, 0x65, 0x5f, 0x76, 0x65, 0x72, 0x73, 
  0x69, 0x6f, 0x6e, 0x00, 0x0d, 0x00, 0x00, 0x00, 0x20, 0x06, 0x00, 0x00, 
  0x18, 0x06, 0x00, 0x00, 0xe8, 0x05, 0x00, 0x00, 0xcc, 0x05, 0x00, 0x00, 
  0x9c, 0x05, 0x00, 0x00, 0x8c, 0x03, 0x00, 0x00, 0xfc, 0x00, 0x00, 0x00, 
  0xac, 0x00, 0x00, 0x00, 0xa4, 0x00, 0x00, 0x00, 0x9c, 0x00, 0x00, 0x00, 
  0x94, 0x00, 0x00, 0x00, 0x74, 0x00, 0x00, 0x00, 0x04, 0x00, 0x00, 0x00, 
  0x4a, 0xfa, 0xff, 0xff, 0x04, 0x00, 0x00, 0x00, 0x60, 0x00, 0x00, 0x00, 
  0x0c, 0x00, 0x00, 0x00, 0x08, 0x00, 0x0e, 0x00, 0x08, 0x00, 0x04, 0x00, 
  0x08, 0x00, 0x00, 0x00, 0x10, 0x00, 0x00, 0x00, 0x28, 0x00, 0x00, 0x00, 
  0x00, 0x00, 0x06, 0x00, 0x08, 0x00, 0x04, 0x00, 0x06, 0x00, 0x00, 0x00, 
  0x04, 0x00, 0x00, 0x00, 0x01, 0x00, 0x00, 0x00, 0xea, 0x03, 0x00, 0x00, 
  0x0c, 0x00, 0x18, 0x00, 0x14, 0x00, 0x10, 0x00, 0x0c, 0x00, 0x04, 0x00, 
  0x0c, 0x00, 0x00, 0x00, 0x8f, 0xf8, 0x39, 0x6e, 0x66, 0x09, 0x5d, 0x6f, 
  0x02, 0x00, 0x00, 0x00, 0x02, 0x00, 0x00, 0x00, 0x04, 0x00, 0x00, 0x00, 
  0x06, 0x00, 0x00, 0x00, 0x32, 0x2e, 0x32, 0x31, 0x2e, 0x30, 0x00, 0x00, 
  0xb6, 0xfa, 0xff, 0xff, 0x04, 0x00, 0x00, 0x00, 0x10, 0x00, 0x00, 0x00, 
  0x31, 0x2e, 0x35, 0x2e, 0x30, 0x00, 0x00, 0x00, 0x00, 0x00, 0x00, 0x00, 
  0x00, 0x00, 0x00, 0x00, 0x7c, 0xf5, 0xff, 0xff, 0x80, 0xf5, 0xff, 0xff, 
  0x84, 0xf5, 0xff, 0xff, 0xde, 0xfa, 0xff, 0xff, 0x04, 0x00, 0x00, 0x00, 
  0x40, 0x00, 0x00, 0x00, 0x00, 0x00, 0x00, 0x00, 0x00, 0x00, 0x00, 0x00, 
  0x00, 0x00, 0x00, 0x00, 0x00, 0x00, 0x00, 0x00, 0x00, 0x00, 0x00, 0x00, 
  0x00, 0x00, 0x00, 0x00, 0x09, 0x06, 0xf4, 0x3c, 0x32, 0xff, 0x71, 0x3d, 
  0x00, 0x00, 0x00, 0x00, 0xfa, 0x25, 0xaa, 0x3c, 0x00, 0x00, 0x00, 0x00, 
  0x00, 0x00, 0x00, 0x00, 0x00, 0x00, 0x00, 0x00, 0x00, 0x00, 0x00, 0x00, 
  0x18, 0x0b, 0x38, 0x3d, 0xb1, 0x0e, 0x93, 0xbc, 0x2a, 0xfb, 0xff, 0xff, 
  0x04, 0x00, 0x00, 0x00, 0x80, 0x02, 0x00, 0x00, 0xac, 0xda, 0x52, 0xbe, 
  0x40, 0x10, 0x34, 0xbe, 0x40, 0x96, 0x46, 0x3d, 0xd4, 0xe0, 0x48, 0xbe, 
  0x6c, 0xef, 0xac, 0xbe, 0x70, 0x84, 0xfc, 0xbd, 0x30, 0xa3, 0x38, 0x3e, 
  0x00, 0x6d, 0x20, 0x3e, 0xdd, 0x49, 0xe4, 0xbe, 0xda, 0xde, 0xac, 0xbe, 
  0xa6, 0xc7, 0xe8, 0xbe, 0x66, 0xb7, 0xa1, 0xbe, 0x88, 0x46, 0x3c, 0xbe, 
  0x30, 0xcb, 0x5b, 0xbd, 0xa8, 0xa3, 0x95, 0x3e, 0xd0, 0x14, 0x30, 0x3e, 
  0xf4, 0x66, 0x0d, 0xbe, 0xb6, 0x06, 0x85, 0xbe, 0xae, 0x5f, 0xd2, 0xbe, 
  0x54, 0xaa, 0xea, 0x3e, 0xe0, 0x1b, 0x60, 0xbc, 0x7a, 0x37, 0xc9, 0x3e, 
  0x4e, 0x54, 0xa4, 0x3e, 0xd0, 0xea, 0xa5, 0xbe, 0x64, 0xa5, 0xde, 0xbe, 
  0x48, 0xc3, 0xfe, 0xbd, 0x3e, 0xe8, 0xbe, 0x3e, 0x72, 0xa5, 0xa8, 0xbe, 
  0x48, 0x9a, 0xf4, 0xbe, 0x5b, 0xfc, 0x70, 0xbe, 0x68, 0x32, 0x94, 0x3e, 
  0x32, 0x9f, 0xc9, 0xbe, 0xba, 0xdc, 0xe1, 0x3e, 0x3a, 0x63, 0x97, 0xbe, 
  0x50, 0x4b, 0x8a, 0x3d, 0xa9, 0xa8, 0x82, 0xbe, 0x38, 0xb9, 0x66, 0x3e, 
  0x97, 0x3b, 0xd1, 0xbe, 0x58, 0x8e, 0x8c, 0x3e, 0x58, 0xa8, 0xd0, 0xbd, 
  0xbc, 0x52, 0x80, 0x3e, 0x2c, 0x8d, 0x1d, 0xbe, 0x10, 0xd4, 0x3a, 0x3d, 
  0x18, 0x9a, 0x77, 0x3e, 0xf0, 0xf3, 0x2b, 0x3d, 0x3a, 0x0c, 0x68, 0xbe, 
  0x20, 0xa0, 0xc7, 0x3e, 0x1a, 0xfe, 0xd3, 0xbe, 0x7d, 0xd4, 0xcb, 0xbe, 
  0x38, 0x98, 0x05, 0xbe, 0x88, 0x4f, 0x0d, 0x3e, 0x13, 0xc1, 0xdd, 0xbe, 
  0xc8, 0xf4, 0x92, 0x3d, 0xe2, 0x49, 0xbe, 0xbe, 0xa0, 0xbb, 0x3c, 0x3d, 
  0xc0, 0x9b, 0x0d, 0xbc, 0xa8, 0x26, 0x8b, 0xbe, 0x1c, 0xba, 0xcd, 0xbe, 
  0x88, 0x86, 0xfc, 0x3d, 0xc4, 0x03, 0x1c, 0x3e, 0xe0, 0xd8, 0xee, 0x3e, 
  0x94, 0x7d, 0xe7, 0x3e, 0x14, 0xf6, 0x90, 0x3e, 0x92, 0x40, 0xa0, 0xbe, 
  0x87, 0xf8, 0xb5, 0xbe, 0xce, 0xd0, 0xbf, 0x3e, 0xb3, 0x6e, 0x05, 0xbe, 
  0xc9, 0xf2, 0x19, 0xbe, 0xf2, 0x48, 0xab, 0xbe, 0x4f, 0xed, 0xb8, 0x3e, 
  0x10, 0xeb, 0x5f, 0x3e, 0x6a, 0x71, 0xaa, 0x3e, 0x1c, 0xc5, 0x1b, 0x3d, 
  0xef, 0x6a, 0xde, 0x3e, 0xdc, 0xe7, 0x9a, 0xbe, 0x1c, 0x40, 0xab, 0xbe, 
  0x7d, 0xe3, 0x22, 0xbe, 0x65, 0x1d, 0x09, 0x3e, 0xa6, 0xc8, 0x9b, 0x3e, 
  0x39, 0xbc, 0x2a, 0x3d, 0x5c, 0xa0, 0x98, 0x3e, 0x24, 0x2e, 0x4d, 0x3e, 
  0x70, 0x4f, 0x8b, 0xbd, 0xb8, 0x97, 0xbf, 0xbe, 0x52, 0xdf, 0x05, 0xbe, 
  0xdc, 0x05, 0xd8, 0xbd, 0xb6, 0x9f, 0x86, 0x3e, 0x64, 0x5f, 0x89, 0xbd, 
  0x94, 0xcc, 0x01, 0x3e, 0x93, 0x7a, 0xf0, 0xbe, 0xbd, 0x9f, 0xdd, 0x3e, 
  0x1a, 0xf9, 0xf1, 0x3e, 0xcc, 0x95, 0x16, 0x3e, 0xb9, 0xfa, 0x39, 0xbe, 
  0xf7, 0xb8, 0x11, 0xbe, 0xd8, 0x30, 0xd7, 0x3e, 0xa0, 0x62, 0xd8, 0x3e, 
  0xb1, 0x3e, 0xab, 0xbe, 0x77, 0x37, 0x0b, 0x3f, 0xde, 0x90, 0xec, 0x3e, 
  0x30, 0x10, 0x28, 0x3e, 0xb0, 0x12, 0x50, 0x3d, 0x73, 0x95, 0xe8, 0xbe, 
  0xac, 0xb5, 0x85, 0x3e, 0x65, 0x33, 0xbb, 0xbe, 0xc0, 0xb7, 0x3b, 0x3c, 
  0x5c, 0xe9, 0xaf, 0xbe, 0x98, 0x3c, 0xc0, 0x3e, 0xcc, 0x13, 0x2c, 0x3e, 
  0x32, 0x4c, 0xbc, 0xbe, 0xdc, 0x81, 0x78, 0x3e, 0x00, 0x1b, 0x98, 0x3c, 
  0xd0, 0xc2, 0x84, 0xbe, 0xd4, 0x2f, 0x21, 0xbe, 0x01, 0xca, 0xf0, 0xbe, 
  0x3a, 0x03, 0x92, 0xbe, 0x24, 0x9e, 0x56, 0xbe, 0x10, 0x82, 0x21, 0x3d, 
  0x10, 0x37, 0xaa, 0x3e, 0x60, 0xb0, 0x92, 0x3d, 0x50, 0x21, 0x9c, 0x3e, 
  0x86, 0xe2, 0xdd, 0x3e, 0x6e, 0x26, 0x15, 0xbe, 0xac, 0xce, 0x18, 0x3e, 
  0x0c, 0x27, 0x0e, 0xbe, 0xaf, 0x5e, 0xf2, 0xbe, 0x00, 0xf4, 0x99, 0x3e, 
  0x66, 0x24, 0x36, 0xbe, 0x9a, 0x20, 0x31, 0xbe, 0x6e, 0x07, 0xa7, 0xbe, 
  0xf0, 0x49, 0x7a, 0x3d, 0x56, 0x1a, 0xce, 0xbe, 0x96, 0x42, 0xe4, 0x3e, 
  0x84, 0x03, 0x89, 0xbd, 0x9a, 0xa6, 0x23, 0xbe, 0x64, 0x94, 0x0e, 0xbe, 
  0x86, 0x40, 0xf2, 0xbe, 0x8e, 0x2d, 0xa7, 0x3e, 0xae, 0xc7, 0xc0, 0x3e, 
  0x51, 0xee, 0x7b, 0xbe, 0xd6, 0x8e, 0x27, 0xbe, 0xa4, 0x6e, 0x01, 0x3c, 
  0x7a, 0x59, 0x94, 0x3b, 0x2d, 0xc6, 0xfb, 0x3e, 0x3b, 0xd2, 0x97, 0x3e, 
  0x66, 0x90, 0xb5, 0x3e, 0x10, 0x62, 0xe5, 0x3e, 0x1f, 0x3e, 0xce, 0xbe, 
  0xf0, 0x31, 0xbc, 0xbe, 0xc4, 0xd7, 0x93, 0xbe, 0xc8, 0x33, 0xc3, 0xbe, 
  0x50, 0x8d, 0xd8, 0xbc, 0x06, 0x53, 0x5a, 0xbe, 0x66, 0x18, 0x23, 0xbe, 
  0x27, 0xd7, 0x20, 0x3e, 0x51, 0x1a, 0x7f, 0xbe, 0xb9, 0x8c, 0x4d, 0x3e, 
  0x5d, 0x8d, 0x83, 0xbd, 0x24, 0x53, 0xb8, 0x3e, 0x9a, 0x99, 0x93, 0x3e, 
  0xb6, 0xfd, 0xff, 0xff, 0x04, 0x00, 0x00, 0x00, 0x00, 0x02, 0x00, 0x00, 
  0x10, 0x78, 0xf9, 0x3d, 0x28, 0xca, 0xfc, 0x3e, 0x50, 0x0f, 0x3c, 0x3e, 
  0x00, 0xe4, 0x57, 0x3b, 0x50, 0x69, 0xcf, 0x3e, 0x70, 0xf7, 0x44, 0xbe, 
  0xe4, 0xf4, 0xf2, 0xbe, 0x4d, 0x37, 0x90, 0x3c, 0xa0, 0x7f, 0x67, 0xbe, 
  0x57, 0xed, 0x8b, 0x3d, 0x6c, 0x37, 0xf6, 0xbe, 0xd8, 0x22, 0x85, 0xbe, 
  0xe8, 0xc9, 0xc3, 0x3e, 0x98, 0xac, 0x16, 0x3e, 0x1b, 0x87, 0x96, 0x3e, 
  0x6e, 0x32, 0x47, 0x3e, 0x40, 0x1c, 0xad, 0x3c, 0xd0, 0xa7, 0x79, 0x3e, 
  0xbc, 0xd5, 0xf0, 0xbe, 0x1c, 0x62, 0x99, 0x3e, 0x00, 0xf8, 0xd8, 0x3d, 
  0x60, 0x34, 0x47, 0xbe, 0x8a, 0xf9, 0x30, 0x3e, 0x3f, 0xa9, 0x05, 0x3f, 
  0xd0, 0x34, 0xba, 0xbe, 0x1d, 0x4b, 0xdd, 0x3e, 0x44, 0x94, 0xb8, 0xbe, 
  0x2c, 0x18, 0x95, 0x3e, 0x80, 0x3f, 0x5f, 0xbd, 0x40, 0xb6, 0xbd, 0xbc, 
  0xad, 0x97, 0xae, 0x3b, 0x17, 0x0b, 0xcc, 0xbe, 0x60, 0xab, 0x89, 0x3e, 
  0x40, 0x6c, 0x06, 0xbd, 0x38, 0xba, 0x89, 0x3e, 0xe0, 0xbd, 0xa2, 0x3e, 
  0xc0, 0xf7, 0x73, 0x3d, 0x30, 0x46, 0xa7, 0x3e, 0x3a, 0x66, 0xaf, 0xbe, 
  0x5f, 0x78, 0xe8, 0x3d, 0x40, 0x73, 0xa7, 0x3d, 0x02, 0xdb, 0xab, 0x3d, 
  0x64, 0x88, 0xe8, 0xbe, 0x5c, 0x86, 0xb8, 0x3e, 0x88, 0xe5, 0xff, 0xbe, 
  0x50, 0x24, 0x69, 0x3e, 0x36, 0xf4, 0xfb, 0xbe, 0x88, 0x42, 0xc9, 0x3d, 
  0x70, 0xd1, 0x85, 0xbe, 0x7c, 0xce, 0xa1, 0x3e, 0x80, 0xda, 0x4e, 0x3d, 
  0x90, 0x31, 0xf3, 0x3e, 0x98, 0x97, 0xd6, 0xbe, 0x60, 0x77, 0x30, 0xbe, 
  0x93, 0x72, 0x58, 0xbe, 0xf6, 0x02, 0xbc, 0x3e, 0x60, 0x5d, 0xd7, 0xbe, 
  0xf3, 0x35, 0x17, 0xbe, 0x78, 0x62, 0xbf, 0x3e, 0xf0, 0x26, 0x93, 0xbd, 
  0x60, 0x69, 0xf0, 0x3d, 0x40, 0xba, 0x1b, 0x3e, 0x39, 0x31, 0x98, 0x3e, 
  0x00, 0x28, 0xae, 0xbd, 0xb8, 0xcb, 0xe0, 0xbe, 0x78, 0x1e, 0xea, 0x3e, 
  0x80, 0xb6, 0x8f, 0xbc, 0x70, 0x3e, 0x3f, 0xbe, 0xe0, 0xa8, 0x6b, 0xbe, 
  0x90, 0xa8, 0xc4, 0x3d, 0xe8, 0xb9, 0xb6, 0xbe, 0xac, 0x34, 0x9c, 0xbe, 
  0xe0, 0x49, 0x31, 0xbe, 0x2c, 0xa7, 0x81, 0xbe, 0x40, 0x3e, 0xc5, 0xbe, 
  0x00, 0x3a, 0xa4, 0x3b, 0x90, 0x9e, 0x49, 0x3e, 0x40, 0x70, 0xbe, 0xbd, 
  0x78, 0x7c, 0x19, 0xbe, 0xc0, 0x73, 0x36, 0xbd, 0x48, 0xd5, 0xf1, 0xbe, 
  0x00, 0xc0, 0x2f, 0xbd, 0xa8, 0x14, 0x40, 0xbe, 0xd8, 0x66, 0x20, 0xbe, 
  0x00, 0x3e, 0x91, 0x3e, 0x50, 0x40, 0xc5, 0xbe, 0x40, 0xc1, 0x8f, 0xbe, 
  0xa0, 0xcc, 0x43, 0xbe, 0x08, 0x9d, 0xbf, 0x3e, 0x20, 0x3b, 0xf5, 0xbe, 
  0x70, 0x75, 0x63, 0xbe, 0x90, 0x26, 0x05, 0x3e, 0x78, 0x0f, 0xcb, 0xbe, 
  0x28, 0xfe, 0xdb, 0x3e, 0x84, 0xe2, 0xa6, 0xbe, 0x88, 0xfc, 0x2e, 0xbe, 
  0xec, 0x8c, 0xc5, 0xbe, 0x90, 0x25, 0xe9, 0xbe, 0x00, 0x16, 0x3f, 0xbd, 
  0x70, 0x66, 0x7f, 0xbe, 0x28, 0xb1, 0x9f, 0x3e, 0x60, 0xe4, 0x53, 0xbd, 
  0x06, 0x23, 0x82, 0xbe, 0xc2, 0x64, 0x07, 0x3e, 0x00, 0x59, 0x45, 0x3c, 
  0x03, 0xc1, 0x54, 0x3e, 0x88, 0xbc, 0x5d, 0xbe, 0x0c, 0x29, 0xa7, 0xbe, 
  0xe0, 0x35, 0x38, 0x3d, 0x78, 0xdc, 0x62, 0x3e, 0x64, 0xd5, 0x3c, 0xbe, 
  0x41, 0x06, 0xe7, 0x3d, 0x00, 0x2d, 0x2a, 0x3d, 0xb0, 0x12, 0x28, 0x3e, 
  0x68, 0xd4, 0x67, 0x3e, 0x40, 0xf2, 0x76, 0xbd, 0x40, 0x2a, 0xb5, 0xbd, 
  0x48, 0xdd, 0xf9, 0xbe, 0xc4, 0x8b, 0xc9, 0xbe, 0xf8, 0x26, 0x6c, 0x3e, 
  0x78, 0x83, 0x66, 0x3e, 0x96, 0x4d, 0xce, 0xbd, 0x14, 0x3b, 0x8b, 0x3e, 
  0xd0, 0x93, 0xd9, 0x3e, 0x90, 0x08, 0xac, 0xbe, 0x50, 0x93, 0x8f, 0xbe, 
  0x42, 0x3a, 0x93, 0x3e, 0xb0, 0x08, 0x9c, 0x3d, 0xc2, 0xff, 0xff, 0xff, 
  0x04, 0x00, 0x00, 0x00, 0x20, 0x00, 0x00, 0x00, 0x29, 0xfb, 0xa7, 0xbe, 
  0xd8, 0x30, 0x3e, 0x3f, 0x12, 0x41, 0xa3, 0xbe, 0x65, 0xdf, 0xef, 0xbe, 
  0x20, 0x56, 0xae, 0xbd, 0x78, 0x79, 0x27, 0x3f, 0x3d, 0x26, 0x36, 0xbf, 
  0xf1, 0xdb, 0xfe, 0xbe, 0xee, 0xff, 0xff, 0xff, 0x04, 0x00, 0x00, 0x00, 
  0x04, 0x00, 0x00, 0x00, 0xc9, 0x49, 0x34, 0x3d, 0x00, 0x00, 0x06, 0x00, 
  0x08, 0x00, 0x04, 0x00, 0x06, 0x00, 0x00, 0x00, 0x04, 0x00, 0x00, 0x00, 
  0x20, 0x00, 0x00, 0x00, 0x5f, 0x9b, 0xa9, 0xbc, 0x97, 0xc5, 0x34, 0x3d, 
  0x4f, 0x69, 0xe0, 0xbc, 0x13, 0xb1, 0x90, 0x3d, 0x00, 0x00, 0x00, 0x00, 
  0x00, 0x00, 0x00, 0x00, 0xb9, 0xdb, 0x2a, 0xbd, 0x4b, 0x3f, 0x37, 0x3e, 
  0xdc, 0xfa, 0xff, 0xff, 0xe0, 0xfa, 0xff, 0xff, 0x0f, 0x00, 0x00, 0x00, 
  0x4d, 0x4c, 0x49, 0x52, 0x20, 0x43, 0x6f, 0x6e, 0x76, 0x65, 0x72, 0x74, 
  0x65, 0x64, 0x2e, 0x00, 0x01, 0x00, 0x00, 0x00, 0x14, 0x00, 0x00, 0x00, 
  0x00, 0x00, 0x0e, 0x00, 0x18, 0x00, 0x14, 0x00, 0x10, 0x00, 0x0c, 0x00, 
  0x08, 0x00, 0x04, 0x00, 0x0e, 0x00, 0x00, 0x00, 0x14, 0x00, 0x00, 0x00, 
  0x1c, 0x00, 0x00, 0x00, 0xe8, 0x00, 0x00, 0x00, 0xec, 0x00, 0x00, 0x00, 
  0xf0, 0x00, 0x00, 0x00, 0x04, 0x00, 0x00, 0x00, 0x6d, 0x61, 0x69, 0x6e, 
  0x00, 0x00, 0x00, 0x00, 0x03, 0x00, 0x00, 0x00, 0x90, 0x00, 0x00, 0x00, 
  0x48, 0x00, 0x00, 0x00, 0x04, 0x00, 0x00, 0x00, 0xce, 0xff, 0xff, 0xff, 
  0x10, 0x00, 0x00, 0x00, 0x00, 0x00, 0x00, 0x08, 0x0c, 0x00, 0x00, 0x00, 
  0x10, 0x00, 0x00, 0x00, 0x58, 0xfb, 0xff, 0xff, 0x01, 0x00, 0x00, 0x00, 
  0x09, 0x00, 0x00, 0x00, 0x03, 0x00, 0x00, 0x00, 0x08, 0x00, 0x00, 0x00, 
  0x03, 0x00, 0x00, 0x00, 0x02, 0x00, 0x00, 0x00, 0x00, 0x00, 0x0e, 0x00, 
  0x14, 0x00, 0x00, 0x00, 0x10, 0x00, 0x0c, 0x00, 0x0b, 0x00, 0x04, 0x00, 
  0x0e, 0x00, 0x00, 0x00, 0x10, 0x00, 0x00, 0x00, 0x00, 0x00, 0x00, 0x08, 
  0x10, 0x00, 0x00, 0x00, 0x14, 0x00, 0x00, 0x00, 0xba, 0xff, 0xff, 0xff, 
  0x00, 0x00, 0x00, 0x01, 0x01, 0x00, 0x00, 0x00, 0x08, 0x00, 0x00, 0x00, 
  0x03, 0x00, 0x00, 0x00, 0x07, 0x00, 0x00, 0x00, 0x04, 0x00, 0x00, 0x00, 
  0x01, 0x00, 0x00, 0x00, 0x00, 0x00, 0x0e, 0x00, 0x16, 0x00, 0x00, 0x00, 
  0x10, 0x00, 0x0c, 0x00, 0x0b, 0x00, 0x04, 0x00, 0x0e, 0x00, 0x00, 0x00, 
  0x18, 0x00, 0x00, 0x00, 0x00, 0x00, 0x00, 0x08, 0x18, 0x00, 0x00, 0x00, 
  0x1c, 0x00, 0x00, 0x00, 0x00, 0x00, 0x06, 0x00, 0x08, 0x00, 0x07, 0x00, 
  0x06, 0x00, 0x00, 0x00, 0x00, 0x00, 0x00, 0x01, 0x01, 0x00, 0x00, 0x00, 
  0x07, 0x00, 0x00, 0x00, 0x03, 0x00, 0x00, 0x00, 0x00, 0x00, 0x00, 0x00, 
  0x05, 0x00, 0x00, 0x00, 0x06, 0x00, 0x00, 0x00, 0x01, 0x00, 0x00, 0x00, 
  0x09, 0x00, 0x00, 0x00, 0x01, 0x00, 0x00, 0x00, 0x00, 0x00, 0x00, 0x00, 
  0x0a, 0x00, 0x00, 0x00, 0xc0, 0x03, 0x00, 0x00, 0x40, 0x03, 0x00, 0x00, 
  0xe0, 0x02, 0x00, 0x00, 0x90, 0x02, 0x00, 0x00, 0x40, 0x02, 0x00, 0x00, 
  0xf4, 0x01, 0x00, 0x00, 0x90, 0x01, 0x00, 0x00, 0xfc, 0x00, 0x00, 0x00, 
  0x60, 0x00, 0x00, 0x00, 0x04, 0x00, 0x00, 0x00, 0x7e, 0xfc, 0xff, 0xff, 
  0x00, 0x00, 0x00, 0x01, 0x14, 0x00, 0x00, 0x00, 0x1c, 0x00, 0x00, 0x00, 
  0x1c, 0x00, 0x00, 0x00, 0x0a, 0x00, 0x00, 0x00, 0x34, 0x00, 0x00, 0x00, 
  0x02, 0x00, 0x00, 0x00, 0xff, 0xff, 0xff, 0xff, 0x01, 0x00, 0x00, 0x00, 
  0x68, 0xfc, 0xff, 0xff, 0x1b, 0x00, 0x00, 0x00, 0x53, 0x74, 0x61, 0x74, 
  0x65, 0x66, 0x75, 0x6c, 0x50, 0x61, 0x72, 0x74, 0x69, 0x74, 0x69, 0x6f, 
  0x6e, 0x65, 0x64, 0x43, 0x61, 0x6c, 0x6c, 0x5f, 0x31, 0x3a, 0x30, 0x00, 
  0x02, 0x00, 0x00, 0x00, 0x01, 0x00, 0x00, 0x00, 0x01, 0x00, 0x00, 0x00, 
  0xd6, 0xfc, 0xff, 0xff, 0x00, 0x00, 0x00, 0x01, 0x14, 0x00, 0x00, 0x00, 
  0x1c, 0x00, 0x00, 0x00, 0x1c, 0x00, 0x00, 0x00, 0x09, 0x00, 0x00, 0x00, 
  0x74, 0x00, 0x00, 0x00, 0x02, 0x00, 0x00, 0x00, 0xff, 0xff, 0xff, 0xff, 
  0x08, 0x00, 0x00, 0x00, 0xc0, 0xfc, 0xff, 0xff, 0x58, 0x00, 0x00, 0x00, 
  0x73, 0x65, 0x71, 0x75, 0x65, 0x6e, 0x74, 0x69, 0x61, 0x6c, 0x5f, 0x31, 
  0x2f, 0x64, 0x65, 0x6e, 0x73, 0x65, 0x5f, 0x31, 0x5f, 0x32, 0x2f, 0x4d, 
  0x61, 0x74, 0x4d, 0x75, 0x6c, 0x3b, 0x73, 0x65, 0x71, 0x75, 0x65, 0x6e, 
  0x74, 0x69, 0x61, 0x6c, 0x5f, 0x31, 0x2f, 0x64, 0x65, 0x6e, 0x73, 0x65, 
  0x5f, 0x31, 0x5f, 0x32, 0x2f, 0x52, 0x65, 0x6c, 0x75, 0x3b, 0x73, 0x65, 
  0x71, 0x75, 0x65, 0x6e, 0x74, 0x69, 0x61, 0x6c, 0x5f, 0x31, 0x2f, 0x64, 
  0x65, 0x6e, 0x73, 0x65, 0x5f, 0x31, 0x5f, 0x32, 0x2f, 0x42, 0x69, 0x61, 
  0x73, 0x41, 0x64, 0x64, 0x00, 0x00, 0x00, 0x00, 0x02, 0x00, 0x00, 0x00, 
  0x01, 0x00, 0x00, 0x00, 0x08, 0x00, 0x00, 0x00, 0x6e, 0xfd, 0xff, 0xff, 
  0x00, 0x00, 0x00, 0x01, 0x14, 0x00, 0x00, 0x00, 0x1c, 0x00, 0x00, 0x00, 
  0x1c, 0x00, 0x00, 0x00, 0x08, 0x00, 0x00, 0x00, 0x6c, 0x00, 0x00, 0x00, 
  0x02, 0x00, 0x00, 0x00, 0xff, 0xff, 0xff, 0xff, 0x10, 0x00, 0x00, 0x00, 
  0x58, 0xfd, 0xff, 0xff, 0x52, 0x00, 0x00, 0x00, 0x73, 0x65, 0x71, 0x75, 
  0x65, 0x6e, 0x74, 0x69, 0x61, 0x6c, 0x5f, 0x31, 0x2f, 0x64, 0x65, 0x6e, 
  0x73, 0x65, 0x5f, 0x31, 0x2f, 0x4d, 0x61, 0x74, 0x4d, 0x75, 0x6c, 0x3b, 
  0x73, 0x65, 0x71, 0x75, 0x65, 0x6e, 0x74, 0x69, 0x61, 0x6c, 0x5f, 0x31, 
  0x2f, 0x64, 0x65, 0x6e, 0x73, 0x65, 0x5f, 0x31, 0x2f, 0x52, 0x65, 0x6c, 
  0x75, 0x3b, 0x73, 0x65, 0x71, 0x75, 0x65, 0x6e, 0x74, 0x69, 0x61, 0x6c, 
  0x5f, 0x31, 0x2f, 0x64, 0x65, 0x6e, 0x73, 0x65, 0x5f, 0x31, 0x2f, 0x42, 
  0x69, 0x61, 0x73, 0x41, 0x64, 0x64, 0x00, 0x00, 0x02, 0x00, 0x00, 0x00, 
  0x01, 0x00, 0x00, 0x00, 0x10, 0x00, 0x00, 0x00, 0x7a, 0xfe, 0xff, 0xff, 
  0x00, 0x00, 0x00, 0x01, 0x10, 0x00, 0x00, 0x00, 0x10, 0x00, 0x00, 0x00, 
  0x07, 0x00, 0x00, 0x00, 0x44, 0x00, 0x00, 0x00, 0xd8, 0xfd, 0xff, 0xff, 
  0x36, 0x00, 0x00, 0x00, 0x73, 0x65, 0x71, 0x75, 0x65, 0x6e, 0x74, 0x69, 
  0x61, 0x6c, 0x5f, 0x31, 0x2f, 0x64, 0x65, 0x6e, 0x73, 0x65, 0x5f, 0x31, 
  0x2f, 0x52, 0x65, 0x6c, 0x75, 0x3b, 0x73, 0x65, 0x71, 0x75, 0x65, 0x6e, 
  0x74, 0x69, 0x61, 0x6c, 0x5f, 0x31, 0x2f, 0x64, 0x65, 0x6e, 0x73, 0x65, 
  0x5f, 0x31, 0x2f, 0x42, 0x69, 0x61, 0x73, 0x41, 0x64, 0x64, 0x00, 0x00, 
  0x01, 0x00, 0x00, 0x00, 0x10, 0x00, 0x00, 0x00, 0xda, 0xfe, 0xff, 0xff, 
  0x00, 0x00, 0x00, 0x01, 0x10, 0x00, 0x00, 0x00, 0x10, 0x00, 0x00, 0x00, 
  0x06, 0x00, 0x00, 0x00, 0x28, 0x00, 0x00, 0x00, 0x38, 0xfe, 0xff, 0xff, 
  0x1b, 0x00, 0x00, 0x00, 0x73, 0x65, 0x71, 0x75, 0x65, 0x6e, 0x74, 0x69, 
  0x61, 0x6c, 0x5f, 0x31, 0x2f, 0x64, 0x65, 0x6e, 0x73, 0x65, 0x5f, 0x31, 
  0x2f, 0x4d, 0x61, 0x74, 0x4d, 0x75, 0x6c, 0x00, 0x02, 0x00, 0x00, 0x00, 
  0x10, 0x00, 0x00, 0x00, 0x0a, 0x00, 0x00, 0x00, 0x22, 0xff, 0xff, 0xff, 
  0x00, 0x00, 0x00, 0x01, 0x10, 0x00, 0x00, 0x00, 0x10, 0x00, 0x00, 0x00, 
  0x05, 0x00, 0x00, 0x00, 0x2c, 0x00, 0x00, 0x00, 0x80, 0xfe, 0xff, 0xff, 
  0x1d, 0x00, 0x00, 0x00, 0x73, 0x65, 0x71, 0x75, 0x65, 0x6e, 0x74, 0x69, 
  0x61, 0x6c, 0x5f, 0x31, 0x2f, 0x64, 0x65, 0x6e, 0x73, 0x65, 0x5f, 0x31, 
  0x5f, 0x32, 0x2f, 0x4d, 0x61, 0x74, 0x4d, 0x75, 0x6c, 0x00, 0x00, 0x00, 
  0x02, 0x00, 0x00, 0x00, 0x08, 0x00, 0x00, 0x00, 0x10, 0x00, 0x00, 0x00, 
  0x6e, 0xff, 0xff, 0xff, 0x00, 0x00, 0x00, 0x01, 0x10, 0x00, 0x00, 0x00, 
  0x10, 0x00, 0x00, 0x00, 0x04, 0x00, 0x00, 0x00, 0x2c, 0x00, 0x00, 0x00, 
  0xcc, 0xfe, 0xff, 0xff, 0x1d, 0x00, 0x00, 0x00, 0x73, 0x65, 0x71, 0x75, 
  0x65, 0x6e, 0x74, 0x69, 0x61, 0x6c, 0x5f, 0x31, 0x2f, 0x64, 0x65, 0x6e, 
  0x73, 0x65, 0x5f, 0x32, 0x5f, 0x31, 0x2f, 0x4d, 0x61, 0x74, 0x4d, 0x75, 
  0x6c, 0x00, 0x00, 0x00, 0x02, 0x00, 0x00, 0x00, 0x01, 0x00, 0x00, 0x00, 
  0x08, 0x00, 0x00, 0x00, 0xba, 0xff, 0xff, 0xff, 0x00, 0x00, 0x00, 0x01, 
  0x10, 0x00, 0x00, 0x00, 0x10, 0x00, 0x00, 0x00, 0x03, 0x00, 0x00, 0x00, 
  0x28, 0x00, 0x00, 0x00, 0x18, 0xff, 0xff, 0xff, 0x1a, 0x00, 0x00, 0x00, 
  0x73, 0x65, 0x71, 0x75, 0x65, 0x6e, 0x74, 0x69, 0x61, 0x6c, 0x5f, 0x31, 
  0x2f, 0x64, 0x65, 0x6e, 0x73, 0x65, 0x5f, 0x32, 0x5f, 0x31, 0x2f, 0x41, 
  0x64, 0x64, 0x00, 0x00, 0x01, 0x00, 0x00, 0x00, 0x01, 0x00, 0x00, 0x00, 
  0x00, 0x00, 0x16, 0x00, 0x18, 0x00, 0x14, 0x00, 0x00, 0x00, 0x10, 0x00, 
  0x0c, 0x00, 0x08, 0x00, 0x00, 0x00, 0x00, 0x00, 0x00, 0x00, 0x07, 0x00, 
  0x16, 0x00, 0x00, 0x00, 0x00, 0x00, 0x00, 0x01, 0x10, 0x00, 0x00, 0x00, 
  0x10, 0x00, 0x00, 0x00, 0x02, 0x00, 0x00, 0x00, 0x48, 0x00, 0x00, 0x00, 
  0x74, 0xff, 0xff, 0xff, 0x3a, 0x00, 0x00, 0x00, 0x73, 0x65, 0x71, 0x75, 
  0x65, 0x6e, 0x74, 0x69, 0x61, 0x6c, 0x5f, 0x31, 0x2f, 0x64, 0x65, 0x6e, 
  0x73, 0x65, 0x5f, 0x31, 0x5f, 0x32, 0x2f, 0x52, 0x65, 0x6c, 0x75, 0x3b, 
  0x73, 0x65, 0x71, 0x75, 0x65, 0x6e, 0x74, 0x69, 0x61, 0x6c, 0x5f, 0x31, 
  0x2f, 0x64, 0x65, 0x6e, 0x73, 0x65, 0x5f, 0x31, 0x5f, 0x32, 0x2f, 0x42, 
  0x69, 0x61, 0x73, 0x41, 0x64, 0x64, 0x00, 0x00, 0x01, 0x00, 0x00, 0x00, 
  0x08, 0x00, 0x00, 0x00, 0x00, 0x00, 0x16, 0x00, 0x1c, 0x00, 0x18, 0x00, 
  0x00, 0x00, 0x14, 0x00, 0x10, 0x00, 0x0c, 0x00, 0x00, 0x00, 0x00, 0x00, 
  0x08, 0x00, 0x07, 0x00, 0x16, 0x00, 0x00, 0x00, 0x00, 0x00, 0x00, 0x01, 
  0x14, 0x00, 0x00, 0x00, 0x20, 0x00, 0x00, 0x00, 0x20, 0x00, 0x00, 0x00, 
  0x01, 0x00, 0x00, 0x00, 0x3c, 0x00, 0x00, 0x00, 0x02, 0x00, 0x00, 0x00, 
  0xff, 0xff, 0xff, 0xff, 0x0a, 0x00, 0x00, 0x00, 0x04, 0x00, 0x04, 0x00, 
  0x04, 0x00, 0x00, 0x00, 0x1e, 0x00, 0x00, 0x00, 0x73, 0x65, 0x72, 0x76, 
  0x69, 0x6e, 0x67, 0x5f, 0x64, 0x65, 0x66, 0x61, 0x75, 0x6c, 0x74, 0x5f, 
  0x6b, 0x65, 0x72, 0x61, 0x73, 0x5f, 0x74, 0x65, 0x6e, 0x73, 0x6f, 0x72, 
  0x3a, 0x30, 0x00, 0x00, 0x02, 0x00, 0x00, 0x00, 0x01, 0x00, 0x00, 0x00, 
  0x0a, 0x00, 0x00, 0x00, 0x01, 0x00, 0x00, 0x00, 0x10, 0x00, 0x00, 0x00, 
  0x0c, 0x00, 0x0c, 0x00, 0x0b, 0x00, 0x00, 0x00, 0x00, 0x00, 0x04, 0x00, 
  0x0c, 0x00, 0x00, 0x00, 0x09, 0x00, 0x00, 0x00, 0x00, 0x00, 0x00, 0x09, 
};
const unsigned int model_data_len = 3252;

#endif // MODEL_DATA_H
